TRT-5105-EntropyCalibration2
000_net: 3c010a14
001_convolutional: 3cae31f3
001_convolutional_bn: 3e00c150
001_convolutional_lrelu: 3d722b0f
002_convolutional: 3e89ab2b
002_convolutional_bn: 3d8680d3
002_convolutional_lrelu: 3d2e7d0b
003_convolutional: 3e0624ee
003_convolutional_bn: 3df2f6e0
003_convolutional_lrelu: 3d5a4ce2
004_convolutional: 3dc6f0b1
004_convolutional_bn: 3dd77567
004_convolutional_lrelu: 3d79e770
005_shortcut: 3da6027a
006_convolutional: 3e971520
006_convolutional_bn: 3dcb1c96
006_convolutional_lrelu: 3d5b12e8
007_convolutional: 3d75778a
007_convolutional_bn: 3d9f24f3
007_convolutional_lrelu: 3d127ee5
008_convolutional: 3dd9e908
008_convolutional_bn: 3d516f81
008_convolutional_lrelu: 3d03751f
009_shortcut: 3d5bff75
010_convolutional: 3df6c15e
010_convolutional_bn: 3dd6421c
010_convolutional_lrelu: 3d2408da
011_convolutional: 3d47dd2c
011_convolutional_bn: 3d96c154
011_convolutional_lrelu: 3d0ba8be
012_shortcut: 3db390b4
013_convolutional: 3e7628f5
013_convolutional_bn: 3dab6a83
013_convolutional_lrelu: 3d3f5a89
014_convolutional: 3d2b1925
014_convolutional_bn: 3d95cc2f
014_convolutional_lrelu: 3d002267
015_convolutional: 3cde7ebf
015_convolutional_bn: 3d32b308
015_convolutional_lrelu: 3c9d483d
016_shortcut: 3d195287
017_convolutional: 3d77801f
017_convolutional_bn: 3d90ea28
017_convolutional_lrelu: 3d1ab1d7
018_convolutional: 3d295720
018_convolutional_bn: 3d17d4e2
018_convolutional_lrelu: 3c8fc0f8
019_shortcut: 3d3d62ce
020_convolutional: 3d5bae6d
020_convolutional_bn: 3d8a1308
020_convolutional_lrelu: 3d08b2bc
021_convolutional: 3d0c2bf5
021_convolutional_bn: 3d5ff91e
021_convolutional_lrelu: 3cb73b23
022_shortcut: 3d519dee
023_convolutional: 3d360931
023_convolutional_bn: 3d6fe3ec
023_convolutional_lrelu: 3d17bbd9
024_convolutional: 3ce2c4ca
024_convolutional_bn: 3d3f1b63
024_convolutional_lrelu: 3c9e3aa9
025_shortcut: 3d580a36
026_convolutional: 3d73d490
026_convolutional_bn: 3d924d31
026_convolutional_lrelu: 3d027350
027_convolutional: 3cebf50b
027_convolutional_bn: 3d5d3bf8
027_convolutional_lrelu: 3d0715ec
028_shortcut: 3d8523e3
029_convolutional: 3d92d282
029_convolutional_bn: 3d817ff9
029_convolutional_lrelu: 3d0385a2
030_convolutional: 3cee5191
030_convolutional_bn: 3d7a791b
030_convolutional_lrelu: 3d144f2b
031_shortcut: 3d9e422c
032_convolutional: 3d8e03e1
032_convolutional_bn: 3d7132d4
032_convolutional_lrelu: 3cecbc19
033_convolutional: 3cbe9f3d
033_convolutional_bn: 3dbc6f5b
033_convolutional_lrelu: 3d0604a1
034_shortcut: 3db03534
035_convolutional: 3dc59522
035_convolutional_bn: 3d7cf84f
035_convolutional_lrelu: 3d08bf5f
036_convolutional: 3cca5de0
036_convolutional_bn: 3da69c30
036_convolutional_lrelu: 3d14b81a
037_shortcut: 3d92720d
038_convolutional: 3e433009
038_convolutional_bn: 3da7d15b
038_convolutional_lrelu: 3d0a5f4e
039_convolutional: 3cbd6cab
039_convolutional_bn: 3d7c07e6
039_convolutional_lrelu: 3d165701
040_convolutional: 3d22774c
040_convolutional_bn: 3d0dc293
040_convolutional_lrelu: 3c378e95
041_shortcut: 3cdc1120
042_convolutional: 3cd5071e
042_convolutional_bn: 3d7f5b67
042_convolutional_lrelu: 3d22e468
043_convolutional: 3d1ef128
043_convolutional_bn: 3d229db5
043_convolutional_lrelu: 3cb0d8e7
044_shortcut: 3d0e588f
045_convolutional: 3d1e0d3a
045_convolutional_bn: 3d8dc956
045_convolutional_lrelu: 3cf0ce4c
046_convolutional: 3c91b1d7
046_convolutional_bn: 3d1bf051
046_convolutional_lrelu: 3c9d2de9
047_shortcut: 3d25bb7f
048_convolutional: 3d0fe863
048_convolutional_bn: 3d78c3a3
048_convolutional_lrelu: 3cc6fde3
049_convolutional: 3ca4ef63
049_convolutional_bn: 3d34182a
049_convolutional_lrelu: 3cc3e55e
050_shortcut: 3d3cbb23
051_convolutional: 3d1218ad
051_convolutional_bn: 3d74532a
051_convolutional_lrelu: 3cc5fe6b
052_convolutional: 3c9a360f
052_convolutional_bn: 3d9fb557
052_convolutional_lrelu: 3cb0a927
053_shortcut: 3d51d5d1
054_convolutional: 3d4eb7f1
054_convolutional_bn: 3d76bda8
054_convolutional_lrelu: 3cc715c7
055_convolutional: 3cd0d8ac
055_convolutional_bn: 3da2b613
055_convolutional_lrelu: 3d0dc668
056_shortcut: 3d6431b3
057_convolutional: 3d565faf
057_convolutional_bn: 3d7fae0c
057_convolutional_lrelu: 3ce116e0
058_convolutional: 3ca327ab
058_convolutional_bn: 3d7e8f68
058_convolutional_lrelu: 3cfda037
059_shortcut: 3d8e9461
060_convolutional: 3d930813
060_convolutional_bn: 3d7702cc
060_convolutional_lrelu: 3cb264bd
061_convolutional: 3ca3353d
061_convolutional_bn: 3dbe250a
061_convolutional_lrelu: 3d0cd2d1
062_shortcut: 3d641166
063_convolutional: 3e134098
063_convolutional_bn: 3d9c88ed
063_convolutional_lrelu: 3cc71e90
064_convolutional: 3ccede3f
064_convolutional_bn: 3da3f318
064_convolutional_lrelu: 3d04a632
065_convolutional: 3d21c511
065_convolutional_bn: 3d479dc8
065_convolutional_lrelu: 3c8101f0
066_shortcut: 3cda7ade
067_convolutional: 3d1c5645
067_convolutional_bn: 3dbd8673
067_convolutional_lrelu: 3cb36019
068_convolutional: 3cc6af64
068_convolutional_bn: 3d54e6ac
068_convolutional_lrelu: 3c92b6e9
069_shortcut: 3d12940b
070_convolutional: 3d2fe166
070_convolutional_bn: 3db1699b
070_convolutional_lrelu: 3ca918fd
071_convolutional: 3cc84178
071_convolutional_bn: 3d5fae72
071_convolutional_lrelu: 3ca235fe
072_shortcut: 3d10e424
073_convolutional: 3da07f95
073_convolutional_bn: 3dd3e506
073_convolutional_lrelu: 3c7c9421
074_convolutional: 3cbb1082
074_convolutional_bn: 3de4ba03
074_convolutional_lrelu: 3d197634
075_shortcut: 3d57b9df
076_convolutional: 3d8059ec
076_convolutional_bn: 3d8ecda9
076_convolutional_lrelu: 3cfa2f75
077_convolutional: 3d63d39a
077_convolutional_bn: 3d788826
077_convolutional_lrelu: 3cfbd270
078_convolutional: 3d7015ed
078_convolutional_bn: 3d803d0c
078_convolutional_lrelu: 3cc7e1a2
079_convolutional: 3d37fc71
079_convolutional_bn: 3d555835
079_convolutional_lrelu: 3cfece34
080_convolutional: 3d59b2dc
080_convolutional_bn: 3d5f391f
080_convolutional_lrelu: 3ca95ca7
081_convolutional: 3d2d123c
081_convolutional_bn: 3d7d451b
081_convolutional_lrelu: 3d1c2c28
082_convolutional: 3e588430
085_convolutional: 3d157d7f
085_convolutional_bn: 3d96c200
085_convolutional_lrelu: 3d330bf6
086_upsample: 3d641166
087_route: 3d641166
088_convolutional: 3dd5b32d
088_convolutional_bn: 3d896836
088_convolutional_lrelu: 3d0a5b5a
089_convolutional: 3dab2c73
089_convolutional_bn: 3d8adc2a
089_convolutional_lrelu: 3d00844e
090_convolutional: 3d58ca5b
090_convolutional_bn: 3d655c0f
090_convolutional_lrelu: 3c877ece
091_convolutional: 3d68184a
091_convolutional_bn: 3d7dc764
091_convolutional_lrelu: 3cab0225
092_convolutional: 3d5acc27
092_convolutional_bn: 3d8607ba
092_convolutional_lrelu: 3ca58f1f
093_convolutional: 3d42a95d
093_convolutional_bn: 3d854391
093_convolutional_lrelu: 3d2bd3f6
094_convolutional: 3e471136
097_convolutional: 3d21df1a
097_convolutional_bn: 3dc5df3f
097_convolutional_lrelu: 3d4edfa2
098_upsample: 3d92720d
099_route: 3d92720d
100_convolutional: 3e09e703
100_convolutional_bn: 3d83affd
100_convolutional_lrelu: 3d089534
101_convolutional: 3dc41e1c
101_convolutional_bn: 3d79f20b
101_convolutional_lrelu: 3cf01d24
102_convolutional: 3d55459b
102_convolutional_bn: 3d7e99b4
102_convolutional_lrelu: 3cf20e57
103_convolutional: 3dafa8ee
103_convolutional_bn: 3d7851da
103_convolutional_lrelu: 3d03a231
104_convolutional: 3d8a5af6
104_convolutional_bn: 3d889f67
104_convolutional_lrelu: 3d0e633b
105_convolutional: 3dd15ad9
105_convolutional_bn: 3d9f9862
105_convolutional_lrelu: 3d3cf574
106_convolutional: 3e8589c2
